-- begin_signature
-- ROM
-- end_signature
WIDTH=32;
DEPTH=32;
ADDRESS_RADIX=UNS;
DATA_RADIX=BIN;

CONTENT BEGIN
31: 00000000000000000000000000000000; 
30: 00000000000000000000000000000000; 
29: 00000000000000000000000000000000; 
28: 00000000000000000000000000000000; 
27: 00000000000000000000000000000000; 
26: 00000000000000000000000000000000; 
25: 00000000000000000000000000000000; 
24: 00000000000000000000000000000000; 
23: 00000000000000000000000000000000; 
22: 00000000000000000000000000000000; 
21: 00000000000000000000000000000000; 
20: 00000000000000000000000000000000; 
19: 00000000000000000000000000000000; 
18: 00000000000000000000000000000000; 
17: 00000000000000000000000000000000; 
16: 00000000000000000000000000000000; 
15: 00000000000000000000000000000000; 
14: 00000000000000000000000000000000; 
13: 00000000000000000000000000000000; 
12: 00000000000000000000000000000000; 
11: 11001010100011111000101100000000; 
10: 10110001011101100110000100000000; 
9: 11010111001000101111011100000000; 
8: 10011010101101010010100100000000; 
7: 10111010011100111110111000000000; 
6: 10000101110100100000101100000000; 
5: 11111111111111111111010011100101; 
4: 00000000000000000000000000100010; 
3: 00000000000000000000000001000000; 
2: 00000000000000000000000000110000; 
1: 00000000000000000000000001011010; 
0: 11111111111111111111111110101001; 

END;
