-- begin_signature
-- ROM
-- end_signature
WIDTH=32;
DEPTH=32;
ADDRESS_RADIX=UNS;
DATA_RADIX=BIN;

CONTENT BEGIN
31: 11110001000011001111111100000000; 
30: 11100000101100001110100000000000; 
29: 11000000000101001110000000000000; 
28: 10011111110101001011100100000000; 
27: 10000100011011001111101000000000; 
26: 11000101100101111111000100000000; 
25: 11001111110100101001111000000000; 
24: 10111011000111110111100100000000; 
23: 11110111101111001010101000000000; 
22: 10110000110101111000001100000000; 
21: 11001100001000111111111100000000; 
20: 10000001100110010010101000000000; 
19: 10010110000000011010010100000000; 
18: 10100011001010100101110000000000; 
17: 11111010000000100101111000000000; 
16: 11011111010010111101011000000000; 
15: 11111111111111111111111110100000; 
14: 11111111111111111111111110000001; 
13: 00000000000000000000000010011001; 
12: 11111111111111111111111101001111; 
11: 00000000000000000000000000101001; 
10: 11111111111111111111111101001110; 
9: 11111111111111111111111011000100; 
8: 00000000000000000000000001000111; 
7: 00000000000000000000000010100000; 
6: 11111111111111111111111111011101; 
5: 11111111111111111111111111100011; 
4: 00000000000000000000000001110001; 
3: 00000000000000000000000000011010; 
2: 00000000000000000000000010111000; 
1: 11111111111111111111111110110101; 
0: 00000000000000000000000000101000; 

END;
