-- begin_signature
-- ROM
-- end_signature
WIDTH=32;
DEPTH=64;
ADDRESS_RADIX=UNS;
DATA_RADIX=BIN;

CONTENT BEGIN
63: 11000100110101111001101000000000; 
62: 11110010100011000010110100000000; 
61: 10010000110000001110110100000000; 
60: 10101010110100001110001100000000; 
59: 11110000011100100111011000000000; 
58: 11110101011100010000100100000000; 
57: 10010011010001100011111000000000; 
56: 10010000100100100101100100000000; 
55: 10000100110110011110110100000000; 
54: 10001010110101000000000000000000; 
53: 10001110100001011110101100000000; 
52: 11100010101100000001100000000000; 
51: 11011100001101101001011000000000; 
50: 10011011110110010111010100000000; 
49: 10010111001000000000110000000000; 
48: 10101111000111111000100000000000; 
47: 10001111111110010010111000000000; 
46: 10000110111110110101011000000000; 
45: 10110001010000110011101000000000; 
44: 10000111100100010011110000000000; 
43: 11101100000111110010001100000000; 
42: 10000000101011100010110100000000; 
41: 10010011100010100110101100000000; 
40: 10010010010010001001001000000000; 
39: 10101001101101001100001000000000; 
38: 10100110000110100000000000000000; 
37: 10010001001010110110001000000000; 
36: 10100011110010101010011000000000; 
35: 11110101001100110110000000000000; 
34: 10001100010000000110101100000000; 
33: 10110111111110111001110000000000; 
32: 10010101111000011001110100000000; 
31: 11111111111111111111111101001110; 
30: 11111111111111111111111000010011; 
29: 00000000000000000000000001100000; 
28: 11111111111111111111111110100100; 
27: 00000000000000000000000111001110; 
26: 00000000000000000000000001001100; 
25: 00000000000000000000000000110010; 
24: 00000000000000000000000010100010; 
23: 00000000000000000000000110011100; 
22: 00000000000000000000000010000011; 
21: 00000000000000000000000101010110; 
20: 00000000000000000000000001100011; 
19: 11111111111111111111111111001010; 
18: 00000000000000000000001001110001; 
17: 11111111111111111111111100000111; 
16: 00000000000000000000000101101011; 
15: 00000000000000000000000100011011; 
14: 00000000000000000000000010010001; 
13: 11111111111111111111111111101010; 
12: 00000000000000000000000010101111; 
11: 00000000000000000000000100101011; 
10: 11111111111111111111111111101010; 
9: 00000000000000000000000010110101; 
8: 11111111111111111111111100111101; 
7: 00000000000000000000000100010100; 
6: 00000000000000000000000101111011; 
5: 00000000000000000000000010010010; 
4: 00000000000000000000000011000110; 
3: 11111111111111111111111110101001; 
2: 00000000000000000000000001000000; 
1: 00000000000000000000000000111010; 
0: 11111111111111111111111111111011; 

END;
