-- begin_signature
-- ROM
-- end_signature
WIDTH=32;
DEPTH=128;
ADDRESS_RADIX=UNS;
DATA_RADIX=BIN;

CONTENT BEGIN
127: 10100111001101111110000100000000; 
126: 11001101000011101110000100000000; 
125: 11111101000110111101111100000000; 
124: 10000110110010001010000100000000; 
123: 10110000110111010101000100000000; 
122: 11101100100001001100000100000000; 
121: 10010001100111010010111100000000; 
120: 10111011101010000100011100000000; 
119: 10100001111000101111101000000000; 
118: 10000111100000100100001100000000; 
117: 10001011110111011011001000000000; 
116: 10101100111001100100111100000000; 
115: 10010000111011011110111100000000; 
114: 11101000011010101001001100000000; 
113: 10100100110000101101010100000000; 
112: 10001101011001101001110100000000; 
111: 10110000010000000011101100000000; 
110: 11111001001100001001101000000000; 
109: 10111111010001110000010100000000; 
108: 10100010001000011010011100000000; 
107: 11011010101010010001001000000000; 
106: 10000010010011110010011000000000; 
105: 10101010001111011000111100000000; 
104: 10101011111011111011100000000000; 
103: 10110010101011111111110000000000; 
102: 11010000010011111010110000000000; 
101: 10110000000111011000010100000000; 
100: 10010100101010100101110000000000; 
99: 10011000001110101100000000000000; 
98: 11101010100000000110000100000000; 
97: 11110011000011100110011000000000; 
96: 10010001111111000100110100000000; 
95: 10011111000110001000100000000000; 
94: 10111001110000011000111000000000; 
93: 10000110111011101001110000000000; 
92: 10100100100010101000010000000000; 
91: 10101100000111100111101000000000; 
90: 10010001111100001100111100000000; 
89: 10000011001100100111110000000000; 
88: 10001000100000010110000000000000; 
87: 10111000010010101010001000000000; 
86: 10100000110011000011000000000000; 
85: 10001011111111110111010000000000; 
84: 11110111111101100011000100000000; 
83: 10101101111001011100000000000000; 
82: 10001000000011110100111100000000; 
81: 11011010010001111000110000000000; 
80: 10010000000110011010011000000000; 
79: 10001110101101100100101100000000; 
78: 10100011010001010001100100000000; 
77: 11111001100011001010110000000000; 
76: 10001111011000011111010100000000; 
75: 11000011111011011110011000000000; 
74: 10110101101111110111110000000000; 
73: 10101011101011100000100100000000; 
72: 10110010111001100011111100000000; 
71: 10011101011010001100010100000000; 
70: 10011001000110101111000000000000; 
69: 10011100000010010000111000000000; 
68: 11000001001011111100011000000000; 
67: 10000011110001110000100100000000; 
66: 10111001011000001110111000000000; 
65: 10011010100101110100000100000000; 
64: 10001001101110001111101000000000; 
63: 11111111111111111111111110100001; 
62: 00000000000000000000000011111001; 
61: 11111111111111111111111101111100; 
60: 00000000000000000000000010011101; 
59: 11111111111111111111111110011011; 
58: 11111111111111111111111110101011; 
57: 00000000000000000000000010111110; 
56: 11111111111111111111111101110001; 
55: 00000000000000000000000000010111; 
54: 11111111111111111111111110011100; 
53: 11111111111111111111111110100001; 
52: 11111111111111111111111111011011; 
51: 11111111111111111111111100111100; 
50: 11111111111111111111111110111000; 
49: 11111111111111111111111111101000; 
48: 00000000000000000000000101001101; 
47: 11111111111111111111111110001110; 
46: 00000000000000000000000100101000; 
45: 00000000000000000000000001001001; 
44: 11111111111111111111111110001111; 
43: 00000000000000000000000000111011; 
42: 11111111111111111111111111000101; 
41: 00000000000000000000000011000111; 
40: 11111111111111111111111101101001; 
39: 11111111111111111111111110011011; 
38: 11111111111111111111111110101010; 
37: 00000000000000000000000001101011; 
36: 11111111111111111111111101111010; 
35: 00000000000000000000000010001011; 
34: 00000000000000000000000000010101; 
33: 00000000000000000000001000100011; 
32: 00000000000000000000000001100100; 
31: 11111111111111111111111110100010; 
30: 11111111111111111111111101010111; 
29: 11111111111111111111111111000110; 
28: 11111111111111111111111111010100; 
27: 00000000000000000000000011101101; 
26: 00000000000000000000000110000100; 
25: 11111111111111111111111111011101; 
24: 11111111111111111111111110101110; 
23: 00000000000000000000000000010110; 
22: 00000000000000000000000111100000; 
21: 00000000000000000000000101101010; 
20: 00000000000000000000000001111000; 
19: 00000000000000000000000000010110; 
18: 11111111111111111111111110100100; 
17: 11111111111111111111111111011000; 
16: 00000000000000000000001000111000; 
15: 11111111111111111111111101101001; 
14: 11111111111111111111111110010001; 
13: 11111111111111111111111111101100; 
12: 11111111111111111111111111101100; 
11: 11111111111111111111111110100101; 
10: 11111111111111111111111110000100; 
9: 11111111111111111111111101101110; 
8: 11111111111111111111111111000000; 
7: 00000000000000000000000001000011; 
6: 00000000000000000000000011110010; 
5: 11111111111111111111111101110101; 
4: 00000000000000000000000011100011; 
3: 00000000000000000000000100001111; 
2: 11111111111111111111111110010111; 
1: 00000000000000000000000010110010; 
0: 11111111111111111111111110011111; 

END;
