-- begin_signature
-- ROM
-- end_signature
WIDTH=32;
DEPTH=64;
ADDRESS_RADIX=UNS;
DATA_RADIX=BIN;

CONTENT BEGIN
63: 00000000000000000000000000000000; 
62: 00000000000000000000000000000000; 
61: 00000000000000000000000000000000; 
60: 00000000000000000000000000000000; 
59: 00000000000000000000000000000000; 
58: 00000000000000000000000000000000; 
57: 00000000000000000000000000000000; 
56: 00000000000000000000000000000000; 
55: 00000000000000000000000000000000; 
54: 00000000000000000000000000000000; 
53: 00000000000000000000000000000000; 
52: 00000000000000000000000000000000; 
51: 00000000000000000000000000000000; 
50: 00000000000000000000000000000000; 
49: 00000000000000000000000000000000; 
48: 00000000000000000000000000000000; 
47: 00000000000000000000000000000000; 
46: 00000000000000000000000000000000; 
45: 00000000000000000000000000000000; 
44: 00000000000000000000000000000000; 
43: 00000000000000000000000000000000; 
42: 00000000000000000000000000000000; 
41: 00000000000000000000000000000000; 
40: 00000000000000000000000000000000; 
39: 00000000000000000000000000000000; 
38: 00000000000000000000000000000000; 
37: 00000000000000000000000000000000; 
36: 00000000000000000000000000000000; 
35: 10001110001110010010011100000000; 
34: 11111111111111111111111100110000; 
33: 11111111111111111111111110011101; 
32: 11111111111111111111111101011011; 
31: 11111111111111111111111110000111; 
30: 00000000000000000000000001101111; 
29: 11111111111111111111111111110110; 
28: 11111111111111111111111111001010; 
27: 11111111111111111111111110101101; 
26: 11111111111111111111111110001011; 
25: 11111111111111111111111110110010; 
24: 00000000000000000000000010011011; 
23: 11111111111111111111111111011001; 
22: 00000000000000000000000000110110; 
21: 11111111111111111111111111011100; 
20: 11111111111111111111111111110101; 
19: 11111111111111111111111111100110; 
18: 11111111111111111111111011000110; 
17: 11111111111111111111111111010010; 
16: 11111111111111111111111111100000; 
15: 00000000000000000000000010001011; 
14: 11111111111111111111111110111000; 
13: 11111111111111111111111110100111; 
12: 00000000000000000000000000010000; 
11: 11111111111111111111111111010001; 
10: 11111111111111111111111111111101; 
9: 11111111111111111111111111011110; 
8: 00000000000000000000000000110101; 
7: 00000000000000000000000000101010; 
6: 00000000000000000000000001001001; 
5: 00000000000000000000000001011110; 
4: 00000000000000000000000000110100; 
3: 00000000000000000000000010000001; 
2: 00000000000000000000000001101100; 
1: 11111111111111111111111111100100; 
0: 00000000000000000000000011000111; 

END;
